0466
0300
014d
0033
0000
0466
0300
014d
0033
061a
0300
04e6
01cd
0002
0466
0300
014d
0033
061a
0300
04e6
01cd
04e6
0266
034d
0100
0001
0466
0300
014d
0033
061a
0300
04e6
01cd
04e6
0266
034d
0100
0500
024d
034d
0100
0001
0466
0300
014d
0033
061a
0300
04e6
01cd
04e6
0266
034d
0100
0500
024d
034d
0100
0466
0333
014d
0033
0000
0466
0300
014d
0033
061a
0300
04e6
01cd
04e6
0266
034d
0100
0500
024d
034d
0100
0466
0333
014d
0033
064d
034d
04b3
019a
0001
0466
0300
014d
0033
061a
0300
04e6
01cd
04e6
0266
034d
0100
0500
024d
034d
0100
0466
0333
014d
0033
064d
034d
04b3
019a
049a
039a
0100
0033
0000
0466
0300
014d
0033
061a
0300
04e6
01cd
04e6
0266
034d
0100
0500
024d
034d
0100
0466
0333
014d
0033
064d
034d
04b3
019a
049a
039a
0100
0033
0566
0366
01b3
0033
0000
0466
0300
014d
0033
061a
0300
04e6
01cd
04e6
0266
034d
0100
0500
024d
034d
0100
0466
0333
014d
0033
064d
034d
04b3
019a
049a
039a
0100
0033
0566
0366
01b3
0033
0680
0300
0533
0200
0002
0466
0300
014d
0033
061a
0300
04e6
01cd
04e6
0266
034d
0100
0500
024d
034d
0100
0466
0333
014d
0033
064d
034d
04b3
019a
049a
039a
0100
0033
0566
0366
01b3
0033
0680
0300
0533
0200
0566
0300
0480
0180
0001
