ffa5
ffda
ffda
ffd0
ff91
011e
0032
ff58
0040
ff8b
003e
fffc
ffdf
00e6
ff81
ff83
ffdc
006e
ffb8
0040
01b8
ff5f
ff6a
ff6a
fff7
ffa6
0094
ffd4
0126
ff1e
008c
003c
0000
0000
fff7
fffb
ff9c
00d2
0000
0000
ff6f
0029
00ae
0008
ff8b
0047
ff4b
0078
ffa7
ffd8
0072
ff9d
fec6
0039
0136
0062
ffef
fef6
ffbd
0028
ffa0
ffd7
009b
00a8
0093
0042
ff3c
